/*
 * Auto-generated TFLite model for ESP32
 * Model: Smart Irrigation Forecaster
 *
 * Input:  8 features (float32)
 * Output: irrigation probability (0-1)
 *
 * Features: temperature, soilmiosture, temperature_mean, soilmiosture_mean, temperature_trend, soilmiosture_trend, soilmiosture_lag_1, soilmiosture_lag_2
 */

#ifndef IRRIGATION_MODEL_H
#define IRRIGATION_MODEL_H

#include <Arduino.h>

// Model data in flash memory
alignas(16) const unsigned char irrigation_model[] PROGMEM = {
    0x1c, 0x00, 0x00, 0x00, 0x54, 0x46, 0x4c, 0x33, 0x14, 0x00, 0x20, 0x00,
    0x1c, 0x00, 0x18, 0x00, 0x14, 0x00, 0x10, 0x00, 0x0c, 0x00, 0x00, 0x00,
    0x08, 0x00, 0x04, 0x00, 0x14, 0x00, 0x00, 0x00, 0x1c, 0x00, 0x00, 0x00,
    0x8c, 0x00, 0x00, 0x00, 0xe4, 0x00, 0x00, 0x00, 0x90, 0x06, 0x00, 0x00,
    0xa0, 0x06, 0x00, 0x00, 0x40, 0x0c, 0x00, 0x00, 0x03, 0x00, 0x00, 0x00,
    0x01, 0x00, 0x00, 0x00, 0x04, 0x00, 0x00, 0x00, 0x22, 0xf9, 0xff, 0xff,
    0x0c, 0x00, 0x00, 0x00, 0x1c, 0x00, 0x00, 0x00, 0x3c, 0x00, 0x00, 0x00,
    0x0f, 0x00, 0x00, 0x00, 0x73, 0x65, 0x72, 0x76, 0x69, 0x6e, 0x67, 0x5f,
    0x64, 0x65, 0x66, 0x61, 0x75, 0x6c, 0x74, 0x00, 0x01, 0x00, 0x00, 0x00,
    0x04, 0x00, 0x00, 0x00, 0x90, 0xff, 0xff, 0xff, 0x0a, 0x00, 0x00, 0x00,
    0x04, 0x00, 0x00, 0x00, 0x08, 0x00, 0x00, 0x00, 0x6f, 0x75, 0x74, 0x70,
    0x75, 0x74, 0x5f, 0x30, 0x00, 0x00, 0x00, 0x00, 0x01, 0x00, 0x00, 0x00,
    0x04, 0x00, 0x00, 0x00, 0x12, 0xfa, 0xff, 0xff, 0x04, 0x00, 0x00, 0x00,
    0x0c, 0x00, 0x00, 0x00, 0x73, 0x65, 0x6e, 0x73, 0x6f, 0x72, 0x5f, 0x69,
    0x6e, 0x70, 0x75, 0x74, 0x00, 0x00, 0x00, 0x00, 0x02, 0x00, 0x00, 0x00,
    0x34, 0x00, 0x00, 0x00, 0x04, 0x00, 0x00, 0x00, 0xdc, 0xff, 0xff, 0xff,
    0x0d, 0x00, 0x00, 0x00, 0x04, 0x00, 0x00, 0x00, 0x13, 0x00, 0x00, 0x00,
    0x43, 0x4f, 0x4e, 0x56, 0x45, 0x52, 0x53, 0x49, 0x4f, 0x4e, 0x5f, 0x4d,
    0x45, 0x54, 0x41, 0x44, 0x41, 0x54, 0x41, 0x00, 0x08, 0x00, 0x0c, 0x00,
    0x08, 0x00, 0x04, 0x00, 0x08, 0x00, 0x00, 0x00, 0x0c, 0x00, 0x00, 0x00,
    0x04, 0x00, 0x00, 0x00, 0x13, 0x00, 0x00, 0x00, 0x6d, 0x69, 0x6e, 0x5f,
    0x72, 0x75, 0x6e, 0x74, 0x69, 0x6d, 0x65, 0x5f, 0x76, 0x65, 0x72, 0x73,
    0x69, 0x6f, 0x6e, 0x00, 0x0e, 0x00, 0x00, 0x00, 0xa8, 0x05, 0x00, 0x00,
    0xa0, 0x05, 0x00, 0x00, 0x70, 0x05, 0x00, 0x00, 0x58, 0x03, 0x00, 0x00,
    0x44, 0x03, 0x00, 0x00, 0x14, 0x03, 0x00, 0x00, 0xc4, 0x02, 0x00, 0x00,
    0xb4, 0x00, 0x00, 0x00, 0xac, 0x00, 0x00, 0x00, 0xa4, 0x00, 0x00, 0x00,
    0x9c, 0x00, 0x00, 0x00, 0x94, 0x00, 0x00, 0x00, 0x74, 0x00, 0x00, 0x00,
    0x04, 0x00, 0x00, 0x00, 0xc6, 0xfa, 0xff, 0xff, 0x04, 0x00, 0x00, 0x00,
    0x60, 0x00, 0x00, 0x00, 0x10, 0x00, 0x00, 0x00, 0x00, 0x00, 0x00, 0x00,
    0x08, 0x00, 0x0e, 0x00, 0x08, 0x00, 0x04, 0x00, 0x08, 0x00, 0x00, 0x00,
    0x10, 0x00, 0x00, 0x00, 0x24, 0x00, 0x00, 0x00, 0x00, 0x00, 0x06, 0x00,
    0x08, 0x00, 0x04, 0x00, 0x06, 0x00, 0x00, 0x00, 0x04, 0x00, 0x00, 0x00,
    0x00, 0x00, 0x00, 0x00, 0x0c, 0x00, 0x18, 0x00, 0x14, 0x00, 0x10, 0x00,
    0x0c, 0x00, 0x04, 0x00, 0x0c, 0x00, 0x00, 0x00, 0x5d, 0x1d, 0xc6, 0x03,
    0x91, 0x4a, 0x24, 0x2a, 0x02, 0x00, 0x00, 0x00, 0x02, 0x00, 0x00, 0x00,
    0x04, 0x00, 0x00, 0x00, 0x06, 0x00, 0x00, 0x00, 0x32, 0x2e, 0x31, 0x39,
    0x2e, 0x30, 0x00, 0x00, 0x32, 0xfb, 0xff, 0xff, 0x04, 0x00, 0x00, 0x00,
    0x10, 0x00, 0x00, 0x00, 0x31, 0x2e, 0x31, 0x34, 0x2e, 0x30, 0x00, 0x00,
    0x00, 0x00, 0x00, 0x00, 0x00, 0x00, 0x00, 0x00, 0x94, 0xf5, 0xff, 0xff,
    0x98, 0xf5, 0xff, 0xff, 0x9c, 0xf5, 0xff, 0xff, 0xa0, 0xf5, 0xff, 0xff,
    0x5e, 0xfb, 0xff, 0xff, 0x04, 0x00, 0x00, 0x00, 0x00, 0x02, 0x00, 0x00,
    0x86, 0x27, 0x9a, 0xbd, 0x96, 0xb8, 0xec, 0x3e, 0xb6, 0xa0, 0x45, 0x3e,
    0x0b, 0x92, 0x9d, 0xbe, 0x5e, 0xed, 0x85, 0x3e, 0x16, 0x82, 0x54, 0x3e,
    0x7c, 0xbc, 0xf7, 0xbe, 0xba, 0x14, 0xfe, 0xbe, 0xc5, 0xe0, 0xb9, 0x3e,
    0xd0, 0x65, 0xfc, 0xbe, 0xc7, 0x0b, 0xd6, 0xbe, 0x8e, 0xdd, 0x2a, 0x3e,
    0xe5, 0xf0, 0x9c, 0x3e, 0x63, 0x93, 0x88, 0x3e, 0x86, 0x96, 0xca, 0x3b,
    0x6e, 0x2a, 0xcd, 0xbe, 0x54, 0x28, 0x6d, 0x3d, 0x9b, 0x5c, 0x19, 0xbe,
    0x32, 0x49, 0xc0, 0xbd, 0xe7, 0x15, 0x08, 0x3f, 0x89, 0x99, 0xd4, 0xbd,
    0x85, 0x53, 0x11, 0xbe, 0x4f, 0x5b, 0xdc, 0xbe, 0xdd, 0x6f, 0xc7, 0x3e,
    0x29, 0xeb, 0xbb, 0xbc, 0x50, 0xd1, 0xfd, 0x3e, 0x59, 0xb9, 0x4a, 0x3e,
    0x75, 0xcf, 0x00, 0x3f, 0x56, 0x67, 0xa0, 0x3e, 0x68, 0x43, 0x16, 0xbd,
    0x79, 0x08, 0xc3, 0x3d, 0x5f, 0xa5, 0x2a, 0x3e, 0xbf, 0xb3, 0xb8, 0x3e,
    0x6f, 0x22, 0xd2, 0xbd, 0x6c, 0x5a, 0x86, 0x3d, 0x48, 0xcc, 0xd4, 0xbe,
    0x57, 0x6f, 0xb4, 0xbd, 0x32, 0xf3, 0xd1, 0x3d, 0x2c, 0x6e, 0x06, 0xbe,
    0x63, 0xc0, 0xd3, 0x3d, 0x71, 0x5c, 0x94, 0xbc, 0x0b, 0xf2, 0x63, 0xbe,
    0xcd, 0x99, 0xad, 0x3e, 0xf5, 0x56, 0x72, 0xbe, 0xd4, 0x53, 0x5d, 0xbf,
    0x61, 0x82, 0xe1, 0x3e, 0x50, 0x95, 0x1d, 0x3e, 0x91, 0xda, 0x95, 0xbe,
    0xc4, 0xb5, 0xdb, 0xbe, 0xca, 0x24, 0x1c, 0xbf, 0x50, 0x20, 0x70, 0xbe,
    0x51, 0xc6, 0xc9, 0xbd, 0xdb, 0xae, 0x31, 0x3f, 0xca, 0xdb, 0x7f, 0xbe,
    0x9e, 0xd7, 0x90, 0x3d, 0x99, 0xaa, 0x34, 0xbe, 0x3e, 0x00, 0x94, 0x3e,
    0x64, 0xff, 0x65, 0x3e, 0xfd, 0x0a, 0x70, 0xbe, 0x1c, 0xe9, 0xdc, 0x3e,
    0xbe, 0x5e, 0xa0, 0xbe, 0x82, 0x68, 0x45, 0xbf, 0xfc, 0x09, 0x24, 0xbd,
    0xf2, 0x19, 0xc0, 0x3d, 0x9d, 0xa8, 0xa8, 0xbe, 0xbf, 0x53, 0x94, 0x3f,
    0x44, 0x28, 0xca, 0x3d, 0x91, 0xd3, 0xb0, 0x3e, 0x51, 0xdc, 0x2f, 0x3e,
    0xfe, 0xc1, 0x06, 0x3f, 0xe6, 0x98, 0x84, 0x3e, 0x61, 0x95, 0x41, 0x3e,
    0x64, 0xe8, 0x61, 0xbe, 0x87, 0x58, 0xbd, 0x3d, 0x69, 0x36, 0xa1, 0xbe,
    0x85, 0x86, 0xf6, 0x3e, 0xb9, 0x45, 0x00, 0x3f, 0x64, 0x5a, 0x9f, 0xbc,
    0x40, 0xce, 0xa8, 0xbd, 0x4f, 0xf3, 0xfc, 0x3e, 0xd3, 0x1e, 0x57, 0xbe,
    0x0e, 0x95, 0x05, 0x3f, 0x95, 0x35, 0xe0, 0xbe, 0x19, 0x92, 0xdd, 0x3e,
    0xd9, 0x5d, 0xb1, 0x3e, 0x5b, 0x16, 0xb5, 0xbe, 0x14, 0x52, 0x07, 0xbc,
    0x12, 0x18, 0x02, 0x3e, 0xd0, 0x48, 0xe5, 0x3e, 0x56, 0x1a, 0xaf, 0xbe,
    0xc0, 0xb6, 0x14, 0x3e, 0x2d, 0x1e, 0xe2, 0xbc, 0x4f, 0x35, 0xa1, 0xbe,
    0xa5, 0x09, 0x65, 0x3e, 0xfe, 0x78, 0x7d, 0xbe, 0x84, 0xc0, 0x21, 0xbd,
    0x9d, 0x0e, 0x10, 0xbe, 0x97, 0x9b, 0xa5, 0xbe, 0xaf, 0xbe, 0x98, 0xbd,
    0xc1, 0xd6, 0x84, 0x3e, 0x5f, 0xed, 0xf1, 0x3e, 0x1c, 0x22, 0x36, 0x3f,
    0x0b, 0x48, 0x1b, 0xbf, 0xb9, 0xfe, 0xd9, 0x3e, 0x5f, 0x9b, 0x33, 0x3e,
    0x14, 0xba, 0xb4, 0x3d, 0xba, 0xc4, 0xc7, 0xbe, 0x39, 0x70, 0xde, 0xbe,
    0x5d, 0x1b, 0xb5, 0xbe, 0x11, 0xfe, 0xc2, 0xbe, 0x7d, 0x20, 0x30, 0xbf,
    0x0c, 0x8c, 0xf4, 0x3d, 0xe6, 0xe2, 0xd0, 0xbe, 0x97, 0x18, 0x2c, 0xbe,
    0x5d, 0xf5, 0x4c, 0x3e, 0x82, 0x11, 0xee, 0x3e, 0x5f, 0x53, 0x1c, 0x3f,
    0xda, 0x7d, 0x96, 0xbe, 0x7a, 0xe7, 0x95, 0xbe, 0x65, 0x02, 0x8a, 0xbc,
    0x0b, 0x50, 0xb2, 0xbe, 0x28, 0x8a, 0x56, 0x3f, 0x27, 0x5c, 0x48, 0xbd,
    0xb3, 0x9b, 0xb2, 0x3e, 0x32, 0x32, 0x27, 0x3f, 0xbd, 0x02, 0x68, 0x3e,
    0x1b, 0x6f, 0xae, 0x3e, 0x76, 0x9d, 0x89, 0x3e, 0x6a, 0xfd, 0xff, 0xff,
    0x04, 0x00, 0x00, 0x00, 0x40, 0x00, 0x00, 0x00, 0xa4, 0x50, 0x47, 0xbd,
    0xd6, 0x5e, 0x26, 0x3f, 0x73, 0xf5, 0xf0, 0x3e, 0xaf, 0xe9, 0x97, 0x3e,
    0x74, 0x06, 0x19, 0x3f, 0xff, 0xd0, 0x1f, 0x3f, 0x4a, 0x0f, 0x4f, 0xbd,
    0x2f, 0x40, 0x0a, 0x3e, 0x96, 0x9d, 0x06, 0xbc, 0xd4, 0x9c, 0xac, 0x3e,
    0xd5, 0xc1, 0x60, 0x3d, 0xfc, 0x3d, 0x25, 0x3d, 0xe8, 0x51, 0x05, 0x3f,
    0x67, 0xde, 0x15, 0x3f, 0x67, 0x4c, 0x3d, 0x3f, 0x5c, 0x75, 0x64, 0x3c,
    0xb6, 0xfd, 0xff, 0xff, 0x04, 0x00, 0x00, 0x00, 0x20, 0x00, 0x00, 0x00,
    0xc2, 0x7e, 0x26, 0xbd, 0xe7, 0x03, 0xe4, 0xbc, 0x13, 0x7f, 0xcf, 0x3e,
    0x6f, 0xc7, 0x07, 0xbd, 0x3a, 0x69, 0xad, 0x3d, 0xc2, 0x9f, 0xb4, 0x3e,
    0x40, 0x86, 0x3e, 0x3d, 0x6f, 0x19, 0xc5, 0xbc, 0xe2, 0xfd, 0xff, 0xff,
    0x04, 0x00, 0x00, 0x00, 0x04, 0x00, 0x00, 0x00, 0x88, 0x54, 0x52, 0x3d,
    0xf2, 0xfd, 0xff, 0xff, 0x04, 0x00, 0x00, 0x00, 0x00, 0x02, 0x00, 0x00,
    0x47, 0xd9, 0xf8, 0xbd, 0x16, 0x1c, 0xcd, 0xbe, 0xb6, 0xb9, 0xfc, 0x3d,
    0x3e, 0xa5, 0x4d, 0x3b, 0xa0, 0x94, 0x51, 0x3e, 0x63, 0xb9, 0x3b, 0xbf,
    0x98, 0x87, 0x1c, 0xbe, 0xb4, 0x80, 0x6f, 0x3e, 0xbf, 0x7e, 0x2e, 0x3e,
    0xb6, 0x03, 0xcd, 0x3d, 0x28, 0xf6, 0x2b, 0xbf, 0x18, 0x35, 0x06, 0xbf,
    0x38, 0xc7, 0x02, 0xbf, 0x93, 0x06, 0x82, 0x3e, 0x01, 0x41, 0x1a, 0x3e,
    0xd9, 0xbb, 0x31, 0xbf, 0xf6, 0x71, 0x2a, 0x3e, 0x60, 0xed, 0x69, 0x3d,
    0x4a, 0x3c, 0x37, 0x3b, 0x4b, 0x3e, 0xdc, 0x3e, 0x4d, 0x8b, 0x08, 0xbe,
    0xdf, 0x36, 0xb4, 0x3e, 0x59, 0xc7, 0x2d, 0x3f, 0x77, 0xa2, 0x41, 0xbe,
    0xad, 0x01, 0xc3, 0x3c, 0xd1, 0x12, 0xa1, 0xbe, 0x46, 0x0e, 0xd9, 0xbe,
    0xe9, 0x46, 0x5f, 0xbe, 0xdf, 0xb0, 0x03, 0xbf, 0x42, 0x5e, 0x13, 0x3f,
    0x15, 0x9a, 0x16, 0xbe, 0xf0, 0xea, 0xdf, 0xbe, 0x92, 0x7f, 0x0a, 0xbf,
    0x7b, 0xe8, 0x23, 0x3f, 0xd3, 0xc5, 0xcc, 0x3d, 0x1b, 0x7f, 0x67, 0xbe,
    0xba, 0x78, 0x0d, 0x3f, 0xe5, 0xf0, 0xfa, 0x3d, 0x29, 0xb3, 0xab, 0xbd,
    0x6d, 0xa6, 0xba, 0x3e, 0xbe, 0x1b, 0x3b, 0xbf, 0xf4, 0xdb, 0x7a, 0x3e,
    0x17, 0x4b, 0x1d, 0xbe, 0xf4, 0x47, 0xc7, 0xbe, 0x40, 0x06, 0x89, 0x3e,
    0xaf, 0x3b, 0x1e, 0x3f, 0x28, 0x0f, 0x01, 0x3f, 0x28, 0x95, 0x50, 0x3c,
    0xbf, 0xfc, 0xee, 0x3e, 0x9d, 0x63, 0xf6, 0x3e, 0xe6, 0x2a, 0x00, 0x3f,
    0x59, 0xa6, 0xc5, 0x3e, 0x6e, 0xd6, 0xa0, 0x3e, 0xcd, 0x03, 0xeb, 0xbe,
    0x41, 0x51, 0xc1, 0xbd, 0x06, 0xd2, 0x70, 0x3e, 0x1f, 0x9d, 0x89, 0xbd,
    0xd2, 0xdb, 0xe1, 0x3e, 0x6c, 0x0d, 0x3c, 0x3f, 0xed, 0xd1, 0xe5, 0x3e,
    0x5d, 0xa7, 0x01, 0xbf, 0xc5, 0x9b, 0x95, 0x3e, 0x3b, 0xcf, 0x4b, 0x3e,
    0xda, 0x32, 0x1f, 0x3e, 0xbf, 0xc8, 0x18, 0x3f, 0x97, 0x15, 0xd9, 0x3e,
    0x93, 0xf3, 0x78, 0xbe, 0xc6, 0x03, 0xf7, 0xba, 0xaf, 0x24, 0x2c, 0x3e,
    0x94, 0x7f, 0x28, 0xbf, 0xfb, 0xe7, 0xd3, 0xbe, 0x14, 0xfe, 0xc3, 0xbe,
    0xd6, 0xf4, 0x42, 0xbe, 0xd1, 0xf0, 0xe5, 0xbe, 0xb6, 0xc6, 0x04, 0xbe,
    0xa1, 0x11, 0x5f, 0xbd, 0xfb, 0x4a, 0x46, 0x3d, 0x40, 0xb8, 0xb2, 0xbe,
    0x4b, 0xe5, 0x38, 0x3e, 0x65, 0x17, 0x44, 0x3d, 0x79, 0x4e, 0x06, 0xbf,
    0x26, 0xb4, 0xb6, 0x3e, 0xd8, 0x2e, 0xc9, 0x3e, 0xeb, 0x3e, 0x06, 0xbe,
    0xfc, 0x1f, 0xe7, 0x3e, 0x7a, 0xba, 0x57, 0x3e, 0x68, 0xb0, 0x83, 0x3e,
    0x37, 0xe4, 0x95, 0x3e, 0x5e, 0xa4, 0x4e, 0xbf, 0xfc, 0x7c, 0xcf, 0x3e,
    0xdc, 0xae, 0x90, 0xbc, 0x7a, 0x1b, 0xbf, 0x3e, 0xdb, 0x0e, 0x30, 0x3f,
    0xf3, 0x48, 0x1f, 0x3f, 0x5b, 0x99, 0x58, 0x3f, 0x9f, 0xbd, 0x01, 0xbf,
    0xfb, 0xc2, 0x08, 0x3f, 0xd7, 0xcf, 0xc9, 0xbe, 0x33, 0x3f, 0xa4, 0x3e,
    0x1d, 0x64, 0xe8, 0x3e, 0x58, 0xe8, 0x1d, 0x3e, 0x99, 0x96, 0x11, 0xbf,
    0xa5, 0x0c, 0xfe, 0xbe, 0xb5, 0x76, 0x17, 0x3f, 0xa8, 0x39, 0xc8, 0xbc,
    0x81, 0x4e, 0xbe, 0x3e, 0xf3, 0x26, 0xb0, 0x3e, 0x28, 0x05, 0x6c, 0x3e,
    0xab, 0x46, 0xbd, 0x3e, 0x02, 0xbc, 0x16, 0xbe, 0x65, 0x72, 0xfa, 0x3e,
    0xef, 0x0f, 0x12, 0x3e, 0x38, 0xb2, 0xfa, 0xbe, 0xcd, 0x11, 0x7c, 0x3e,
    0xa0, 0x6b, 0x12, 0x3e, 0x61, 0x5d, 0x61, 0xbe, 0xfc, 0x54, 0x90, 0x3e,
    0xdf, 0x4a, 0x6a, 0x3d, 0xc2, 0xcb, 0xde, 0x3e, 0xba, 0xa5, 0x62, 0x3e,
    0xef, 0x2f, 0x5a, 0xbf, 0x43, 0xde, 0xea, 0xbd, 0x05, 0xaf, 0xb6, 0x3d,
    0x76, 0xc3, 0xd5, 0xbe, 0xbe, 0xd6, 0x6d, 0xbe, 0x94, 0x24, 0x13, 0xbf,
    0xe2, 0xce, 0x4f, 0x3e, 0xbd, 0x56, 0x01, 0xbf, 0x00, 0x00, 0x06, 0x00,
    0x08, 0x00, 0x04, 0x00, 0x06, 0x00, 0x00, 0x00, 0x04, 0x00, 0x00, 0x00,
    0x20, 0x00, 0x00, 0x00, 0x08, 0xfa, 0x74, 0xbf, 0x41, 0x54, 0x86, 0xbf,
    0xfc, 0x25, 0x33, 0x3f, 0x5f, 0x99, 0xe8, 0xbe, 0x3e, 0xea, 0x4b, 0xbf,
    0x74, 0xa5, 0x45, 0x3f, 0x5d, 0x99, 0x93, 0xbe, 0x21, 0x5d, 0x65, 0xbf,
    0x78, 0xfa, 0xff, 0xff, 0x7c, 0xfa, 0xff, 0xff, 0x0f, 0x00, 0x00, 0x00,
    0x4d, 0x4c, 0x49, 0x52, 0x20, 0x43, 0x6f, 0x6e, 0x76, 0x65, 0x72, 0x74,
    0x65, 0x64, 0x2e, 0x00, 0x01, 0x00, 0x00, 0x00, 0x14, 0x00, 0x00, 0x00,
    0x00, 0x00, 0x0e, 0x00, 0x18, 0x00, 0x14, 0x00, 0x10, 0x00, 0x0c, 0x00,
    0x08, 0x00, 0x04, 0x00, 0x0e, 0x00, 0x00, 0x00, 0x14, 0x00, 0x00, 0x00,
    0x1c, 0x00, 0x00, 0x00, 0x08, 0x01, 0x00, 0x00, 0x0c, 0x01, 0x00, 0x00,
    0x10, 0x01, 0x00, 0x00, 0x04, 0x00, 0x00, 0x00, 0x6d, 0x61, 0x69, 0x6e,
    0x00, 0x00, 0x00, 0x00, 0x04, 0x00, 0x00, 0x00, 0xb0, 0x00, 0x00, 0x00,
    0x68, 0x00, 0x00, 0x00, 0x34, 0x00, 0x00, 0x00, 0x10, 0x00, 0x00, 0x00,
    0x00, 0x00, 0x0a, 0x00, 0x10, 0x00, 0x0c, 0x00, 0x08, 0x00, 0x04, 0x00,
    0x0a, 0x00, 0x00, 0x00, 0x0c, 0x00, 0x00, 0x00, 0x10, 0x00, 0x00, 0x00,
    0x01, 0x00, 0x00, 0x00, 0x01, 0x00, 0x00, 0x00, 0x0a, 0x00, 0x00, 0x00,
    0x01, 0x00, 0x00, 0x00, 0x09, 0x00, 0x00, 0x00, 0x9a, 0xff, 0xff, 0xff,
    0x10, 0x00, 0x00, 0x00, 0x00, 0x00, 0x00, 0x08, 0x0c, 0x00, 0x00, 0x00,
    0x10, 0x00, 0x00, 0x00, 0x24, 0xfb, 0xff, 0xff, 0x01, 0x00, 0x00, 0x00,
    0x09, 0x00, 0x00, 0x00, 0x03, 0x00, 0x00, 0x00, 0x08, 0x00, 0x00, 0x00,
    0x01, 0x00, 0x00, 0x00, 0x03, 0x00, 0x00, 0x00, 0xca, 0xff, 0xff, 0xff,
    0x10, 0x00, 0x00, 0x00, 0x00, 0x00, 0x00, 0x08, 0x10, 0x00, 0x00, 0x00,
    0x14, 0x00, 0x00, 0x00, 0xba, 0xff, 0xff, 0xff, 0x00, 0x00, 0x00, 0x01,
    0x01, 0x00, 0x00, 0x00, 0x08, 0x00, 0x00, 0x00, 0x03, 0x00, 0x00, 0x00,
    0x07, 0x00, 0x00, 0x00, 0x02, 0x00, 0x00, 0x00, 0x04, 0x00, 0x00, 0x00,
    0x00, 0x00, 0x0e, 0x00, 0x16, 0x00, 0x00, 0x00, 0x10, 0x00, 0x0c, 0x00,
    0x0b, 0x00, 0x04, 0x00, 0x0e, 0x00, 0x00, 0x00, 0x18, 0x00, 0x00, 0x00,
    0x00, 0x00, 0x00, 0x08, 0x18, 0x00, 0x00, 0x00, 0x1c, 0x00, 0x00, 0x00,
    0x00, 0x00, 0x06, 0x00, 0x08, 0x00, 0x07, 0x00, 0x06, 0x00, 0x00, 0x00,
    0x00, 0x00, 0x00, 0x01, 0x01, 0x00, 0x00, 0x00, 0x07, 0x00, 0x00, 0x00,
    0x03, 0x00, 0x00, 0x00, 0x00, 0x00, 0x00, 0x00, 0x06, 0x00, 0x00, 0x00,
    0x05, 0x00, 0x00, 0x00, 0x01, 0x00, 0x00, 0x00, 0x0a, 0x00, 0x00, 0x00,
    0x01, 0x00, 0x00, 0x00, 0x00, 0x00, 0x00, 0x00, 0x0b, 0x00, 0x00, 0x00,
    0x04, 0x04, 0x00, 0x00, 0xac, 0x03, 0x00, 0x00, 0x54, 0x03, 0x00, 0x00,
    0x18, 0x03, 0x00, 0x00, 0xdc, 0x02, 0x00, 0x00, 0x80, 0x02, 0x00, 0x00,
    0x30, 0x02, 0x00, 0x00, 0x94, 0x01, 0x00, 0x00, 0xf8, 0x00, 0x00, 0x00,
    0x60, 0x00, 0x00, 0x00, 0x04, 0x00, 0x00, 0x00, 0x3e, 0xfc, 0xff, 0xff,
    0x00, 0x00, 0x00, 0x01, 0x14, 0x00, 0x00, 0x00, 0x1c, 0x00, 0x00, 0x00,
    0x1c, 0x00, 0x00, 0x00, 0x0b, 0x00, 0x00, 0x00, 0x34, 0x00, 0x00, 0x00,
    0x02, 0x00, 0x00, 0x00, 0xff, 0xff, 0xff, 0xff, 0x01, 0x00, 0x00, 0x00,
    0x28, 0xfc, 0xff, 0xff, 0x1b, 0x00, 0x00, 0x00, 0x53, 0x74, 0x61, 0x74,
    0x65, 0x66, 0x75, 0x6c, 0x50, 0x61, 0x72, 0x74, 0x69, 0x74, 0x69, 0x6f,
    0x6e, 0x65, 0x64, 0x43, 0x61, 0x6c, 0x6c, 0x5f, 0x31, 0x3a, 0x30, 0x00,
    0x02, 0x00, 0x00, 0x00, 0x01, 0x00, 0x00, 0x00, 0x01, 0x00, 0x00, 0x00,
    0x96, 0xfc, 0xff, 0xff, 0x00, 0x00, 0x00, 0x01, 0x14, 0x00, 0x00, 0x00,
    0x1c, 0x00, 0x00, 0x00, 0x1c, 0x00, 0x00, 0x00, 0x0a, 0x00, 0x00, 0x00,
    0x70, 0x00, 0x00, 0x00, 0x02, 0x00, 0x00, 0x00, 0xff, 0xff, 0xff, 0xff,
    0x01, 0x00, 0x00, 0x00, 0x80, 0xfc, 0xff, 0xff, 0x56, 0x00, 0x00, 0x00,
    0x73, 0x65, 0x71, 0x75, 0x65, 0x6e, 0x74, 0x69, 0x61, 0x6c, 0x5f, 0x31,
    0x2f, 0x69, 0x72, 0x72, 0x69, 0x67, 0x61, 0x74, 0x69, 0x6f, 0x6e, 0x5f,
    0x70, 0x72, 0x6f, 0x62, 0x61, 0x62, 0x69, 0x6c, 0x69, 0x74, 0x79, 0x5f,
    0x31, 0x2f, 0x4d, 0x61, 0x74, 0x4d, 0x75, 0x6c, 0x3b, 0x73, 0x65, 0x71,
    0x75, 0x65, 0x6e, 0x74, 0x69, 0x61, 0x6c, 0x5f, 0x31, 0x2f, 0x69, 0x72,
    0x72, 0x69, 0x67, 0x61, 0x74, 0x69, 0x6f, 0x6e, 0x5f, 0x70, 0x72, 0x6f,
    0x62, 0x61, 0x62, 0x69, 0x6c, 0x69, 0x74, 0x79, 0x5f, 0x31, 0x2f, 0x41,
    0x64, 0x64, 0x00, 0x00, 0x02, 0x00, 0x00, 0x00, 0x01, 0x00, 0x00, 0x00,
    0x01, 0x00, 0x00, 0x00, 0x2a, 0xfd, 0xff, 0xff, 0x00, 0x00, 0x00, 0x01,
    0x14, 0x00, 0x00, 0x00, 0x1c, 0x00, 0x00, 0x00, 0x1c, 0x00, 0x00, 0x00,
    0x09, 0x00, 0x00, 0x00, 0x74, 0x00, 0x00, 0x00, 0x02, 0x00, 0x00, 0x00,
    0xff, 0xff, 0xff, 0xff, 0x08, 0x00, 0x00, 0x00, 0x14, 0xfd, 0xff, 0xff,
    0x5b, 0x00, 0x00, 0x00, 0x73, 0x65, 0x71, 0x75, 0x65, 0x6e, 0x74, 0x69,
    0x61, 0x6c, 0x5f, 0x31, 0x2f, 0x68, 0x69, 0x64, 0x64, 0x65, 0x6e, 0x5f,
    0x32, 0x5f, 0x31, 0x2f, 0x4d, 0x61, 0x74, 0x4d, 0x75, 0x6c, 0x3b, 0x73,
    0x65, 0x71, 0x75, 0x65, 0x6e, 0x74, 0x69, 0x61, 0x6c, 0x5f, 0x31, 0x2f,
    0x68, 0x69, 0x64, 0x64, 0x65, 0x6e, 0x5f, 0x32, 0x5f, 0x31, 0x2f, 0x52,
    0x65, 0x6c, 0x75, 0x3b, 0x73, 0x65, 0x71, 0x75, 0x65, 0x6e, 0x74, 0x69,
    0x61, 0x6c, 0x5f, 0x31, 0x2f, 0x68, 0x69, 0x64, 0x64, 0x65, 0x6e, 0x5f,
    0x32, 0x5f, 0x31, 0x2f, 0x42, 0x69, 0x61, 0x73, 0x41, 0x64, 0x64, 0x00,
    0x02, 0x00, 0x00, 0x00, 0x01, 0x00, 0x00, 0x00, 0x08, 0x00, 0x00, 0x00,
    0xc2, 0xfd, 0xff, 0xff, 0x00, 0x00, 0x00, 0x01, 0x14, 0x00, 0x00, 0x00,
    0x1c, 0x00, 0x00, 0x00, 0x1c, 0x00, 0x00, 0x00, 0x08, 0x00, 0x00, 0x00,
    0x74, 0x00, 0x00, 0x00, 0x02, 0x00, 0x00, 0x00, 0xff, 0xff, 0xff, 0xff,
    0x10, 0x00, 0x00, 0x00, 0xac, 0xfd, 0xff, 0xff, 0x5b, 0x00, 0x00, 0x00,
    0x73, 0x65, 0x71, 0x75, 0x65, 0x6e, 0x74, 0x69, 0x61, 0x6c, 0x5f, 0x31,
    0x2f, 0x68, 0x69, 0x64, 0x64, 0x65, 0x6e, 0x5f, 0x31, 0x5f, 0x31, 0x2f,
    0x4d, 0x61, 0x74, 0x4d, 0x75, 0x6c, 0x3b, 0x73, 0x65, 0x71, 0x75, 0x65,
    0x6e, 0x74, 0x69, 0x61, 0x6c, 0x5f, 0x31, 0x2f, 0x68, 0x69, 0x64, 0x64,
    0x65, 0x6e, 0x5f, 0x31, 0x5f, 0x31, 0x2f, 0x52, 0x65, 0x6c, 0x75, 0x3b,
    0x73, 0x65, 0x71, 0x75, 0x65, 0x6e, 0x74, 0x69, 0x61, 0x6c, 0x5f, 0x31,
    0x2f, 0x68, 0x69, 0x64, 0x64, 0x65, 0x6e, 0x5f, 0x31, 0x5f, 0x31, 0x2f,
    0x42, 0x69, 0x61, 0x73, 0x41, 0x64, 0x64, 0x00, 0x02, 0x00, 0x00, 0x00,
    0x01, 0x00, 0x00, 0x00, 0x10, 0x00, 0x00, 0x00, 0xae, 0xfe, 0xff, 0xff,
    0x00, 0x00, 0x00, 0x01, 0x10, 0x00, 0x00, 0x00, 0x10, 0x00, 0x00, 0x00,
    0x07, 0x00, 0x00, 0x00, 0x2c, 0x00, 0x00, 0x00, 0x34, 0xfe, 0xff, 0xff,
    0x1e, 0x00, 0x00, 0x00, 0x73, 0x65, 0x71, 0x75, 0x65, 0x6e, 0x74, 0x69,
    0x61, 0x6c, 0x5f, 0x31, 0x2f, 0x68, 0x69, 0x64, 0x64, 0x65, 0x6e, 0x5f,
    0x31, 0x5f, 0x31, 0x2f, 0x4d, 0x61, 0x74, 0x4d, 0x75, 0x6c, 0x00, 0x00,
    0x02, 0x00, 0x00, 0x00, 0x10, 0x00, 0x00, 0x00, 0x08, 0x00, 0x00, 0x00,
    0xfa, 0xfe, 0xff, 0xff, 0x00, 0x00, 0x00, 0x01, 0x10, 0x00, 0x00, 0x00,
    0x10, 0x00, 0x00, 0x00, 0x06, 0x00, 0x00, 0x00, 0x3c, 0x00, 0x00, 0x00,
    0x80, 0xfe, 0xff, 0xff, 0x2e, 0x00, 0x00, 0x00, 0x73, 0x65, 0x71, 0x75,
    0x65, 0x6e, 0x74, 0x69, 0x61, 0x6c, 0x5f, 0x31, 0x2f, 0x68, 0x69, 0x64,
    0x64, 0x65, 0x6e, 0x5f, 0x31, 0x5f, 0x31, 0x2f, 0x42, 0x69, 0x61, 0x73,
    0x41, 0x64, 0x64, 0x2f, 0x52, 0x65, 0x61, 0x64, 0x56, 0x61, 0x72, 0x69,
    0x61, 0x62, 0x6c, 0x65, 0x4f, 0x70, 0x00, 0x00, 0x01, 0x00, 0x00, 0x00,
    0x10, 0x00, 0x00, 0x00, 0x52, 0xff, 0xff, 0xff, 0x00, 0x00, 0x00, 0x01,
    0x10, 0x00, 0x00, 0x00, 0x10, 0x00, 0x00, 0x00, 0x05, 0x00, 0x00, 0x00,
    0x1c, 0x00, 0x00, 0x00, 0xd8, 0xfe, 0xff, 0xff, 0x0f, 0x00, 0x00, 0x00,
    0x61, 0x72, 0x69, 0x74, 0x68, 0x2e, 0x63, 0x6f, 0x6e, 0x73, 0x74, 0x61,
    0x6e, 0x74, 0x33, 0x00, 0x01, 0x00, 0x00, 0x00, 0x08, 0x00, 0x00, 0x00,
    0x8a, 0xff, 0xff, 0xff, 0x00, 0x00, 0x00, 0x01, 0x10, 0x00, 0x00, 0x00,
    0x10, 0x00, 0x00, 0x00, 0x04, 0x00, 0x00, 0x00, 0x1c, 0x00, 0x00, 0x00,
    0x10, 0xff, 0xff, 0xff, 0x0f, 0x00, 0x00, 0x00, 0x61, 0x72, 0x69, 0x74,
    0x68, 0x2e, 0x63, 0x6f, 0x6e, 0x73, 0x74, 0x61, 0x6e, 0x74, 0x32, 0x00,
    0x01, 0x00, 0x00, 0x00, 0x01, 0x00, 0x00, 0x00, 0xc2, 0xff, 0xff, 0xff,
    0x00, 0x00, 0x00, 0x01, 0x10, 0x00, 0x00, 0x00, 0x10, 0x00, 0x00, 0x00,
    0x03, 0x00, 0x00, 0x00, 0x1c, 0x00, 0x00, 0x00, 0x48, 0xff, 0xff, 0xff,
    0x0f, 0x00, 0x00, 0x00, 0x61, 0x72, 0x69, 0x74, 0x68, 0x2e, 0x63, 0x6f,
    0x6e, 0x73, 0x74, 0x61, 0x6e, 0x74, 0x31, 0x00, 0x02, 0x00, 0x00, 0x00,
    0x08, 0x00, 0x00, 0x00, 0x10, 0x00, 0x00, 0x00, 0x00, 0x00, 0x16, 0x00,
    0x18, 0x00, 0x14, 0x00, 0x00, 0x00, 0x10, 0x00, 0x0c, 0x00, 0x08, 0x00,
    0x00, 0x00, 0x00, 0x00, 0x00, 0x00, 0x07, 0x00, 0x16, 0x00, 0x00, 0x00,
    0x00, 0x00, 0x00, 0x01, 0x10, 0x00, 0x00, 0x00, 0x10, 0x00, 0x00, 0x00,
    0x02, 0x00, 0x00, 0x00, 0x1c, 0x00, 0x00, 0x00, 0x9c, 0xff, 0xff, 0xff,
    0x0e, 0x00, 0x00, 0x00, 0x61, 0x72, 0x69, 0x74, 0x68, 0x2e, 0x63, 0x6f,
    0x6e, 0x73, 0x74, 0x61, 0x6e, 0x74, 0x00, 0x00, 0x02, 0x00, 0x00, 0x00,
    0x01, 0x00, 0x00, 0x00, 0x08, 0x00, 0x00, 0x00, 0x00, 0x00, 0x16, 0x00,
    0x1c, 0x00, 0x18, 0x00, 0x00, 0x00, 0x14, 0x00, 0x10, 0x00, 0x0c, 0x00,
    0x00, 0x00, 0x00, 0x00, 0x08, 0x00, 0x07, 0x00, 0x16, 0x00, 0x00, 0x00,
    0x00, 0x00, 0x00, 0x01, 0x14, 0x00, 0x00, 0x00, 0x20, 0x00, 0x00, 0x00,
    0x20, 0x00, 0x00, 0x00, 0x01, 0x00, 0x00, 0x00, 0x3c, 0x00, 0x00, 0x00,
    0x02, 0x00, 0x00, 0x00, 0xff, 0xff, 0xff, 0xff, 0x08, 0x00, 0x00, 0x00,
    0x04, 0x00, 0x04, 0x00, 0x04, 0x00, 0x00, 0x00, 0x1e, 0x00, 0x00, 0x00,
    0x73, 0x65, 0x72, 0x76, 0x69, 0x6e, 0x67, 0x5f, 0x64, 0x65, 0x66, 0x61,
    0x75, 0x6c, 0x74, 0x5f, 0x73, 0x65, 0x6e, 0x73, 0x6f, 0x72, 0x5f, 0x69,
    0x6e, 0x70, 0x75, 0x74, 0x3a, 0x30, 0x00, 0x00, 0x02, 0x00, 0x00, 0x00,
    0x01, 0x00, 0x00, 0x00, 0x08, 0x00, 0x00, 0x00, 0x02, 0x00, 0x00, 0x00,
    0x20, 0x00, 0x00, 0x00, 0x04, 0x00, 0x00, 0x00, 0xf4, 0xff, 0xff, 0xff,
    0x0e, 0x00, 0x00, 0x00, 0x00, 0x00, 0x00, 0x0e, 0x0c, 0x00, 0x0c, 0x00,
    0x0b, 0x00, 0x00, 0x00, 0x00, 0x00, 0x04, 0x00, 0x0c, 0x00, 0x00, 0x00,
    0x09, 0x00, 0x00, 0x00, 0x00, 0x00, 0x00, 0x09
};

const unsigned int irrigation_model_len = 3236;

// Feature normalization parameters
const int NUM_FEATURES = 8;

const float featureMeans[8] = {
    29.422305f, 249.758556f, 29.421382f, 249.824599f, 0.002166f, -0.187166f, 249.802941f, 249.846257f
};

const float featureStds[8] = {
    0.965582f, 77.086452f, 0.921627f, 71.726780f, 0.670448f, 62.392052f, 77.088306f, 77.090652f
};

/*
 * Feature order:
 *   [0] temperature
 *   [1] soilmiosture
 *   [2] temperature_mean
 *   [3] soilmiosture_mean
 *   [4] temperature_trend
 *   [5] soilmiosture_trend
 *   [6] soilmiosture_lag_1
 *   [7] soilmiosture_lag_2
 */

#endif
